#include "sin_wave_model.h"

alignas(8) const unsigned char sine_model_quantized_tflite[] = {
    0x1c, 0x00, 0x00, 0x00, 0x54, 0x46, 0x4c, 0x33, 0x14, 0x00, 0x20, 0x00,
    0x1c, 0x00, 0x18, 0x00, 0x14, 0x00, 0x10, 0x00, 0x0c, 0x00, 0x00, 0x00,
    0x08, 0x00, 0x04, 0x00, 0x14, 0x00, 0x00, 0x00, 0x1c, 0x00, 0x00, 0x00,
    0x90, 0x00, 0x00, 0x00, 0xe8, 0x00, 0x00, 0x00, 0x84, 0x0b, 0x00, 0x00,
    0x94, 0x0b, 0x00, 0x00, 0x8c, 0x10, 0x00, 0x00, 0x03, 0x00, 0x00, 0x00,
    0x01, 0x00, 0x00, 0x00, 0x10, 0x00, 0x00, 0x00, 0x00, 0x00, 0x0a, 0x00,
    0x10, 0x00, 0x0c, 0x00, 0x08, 0x00, 0x04, 0x00, 0x0a, 0x00, 0x00, 0x00,
    0x0c, 0x00, 0x00, 0x00, 0x1c, 0x00, 0x00, 0x00, 0x38, 0x00, 0x00, 0x00,
    0x0f, 0x00, 0x00, 0x00, 0x73, 0x65, 0x72, 0x76, 0x69, 0x6e, 0x67, 0x5f,
    0x64, 0x65, 0x66, 0x61, 0x75, 0x6c, 0x74, 0x00, 0x01, 0x00, 0x00, 0x00,
    0x04, 0x00, 0x00, 0x00, 0x98, 0xff, 0xff, 0xff, 0x09, 0x00, 0x00, 0x00,
    0x04, 0x00, 0x00, 0x00, 0x07, 0x00, 0x00, 0x00, 0x64, 0x65, 0x6e, 0x73,
    0x65, 0x5f, 0x32, 0x00, 0x01, 0x00, 0x00, 0x00, 0x04, 0x00, 0x00, 0x00,
    0x46, 0xf5, 0xff, 0xff, 0x04, 0x00, 0x00, 0x00, 0x0b, 0x00, 0x00, 0x00,
    0x64, 0x65, 0x6e, 0x73, 0x65, 0x5f, 0x69, 0x6e, 0x70, 0x75, 0x74, 0x00,
    0x02, 0x00, 0x00, 0x00, 0x34, 0x00, 0x00, 0x00, 0x04, 0x00, 0x00, 0x00,
    0xdc, 0xff, 0xff, 0xff, 0x0c, 0x00, 0x00, 0x00, 0x04, 0x00, 0x00, 0x00,
    0x13, 0x00, 0x00, 0x00, 0x43, 0x4f, 0x4e, 0x56, 0x45, 0x52, 0x53, 0x49,
    0x4f, 0x4e, 0x5f, 0x4d, 0x45, 0x54, 0x41, 0x44, 0x41, 0x54, 0x41, 0x00,
    0x08, 0x00, 0x0c, 0x00, 0x08, 0x00, 0x04, 0x00, 0x08, 0x00, 0x00, 0x00,
    0x0b, 0x00, 0x00, 0x00, 0x04, 0x00, 0x00, 0x00, 0x13, 0x00, 0x00, 0x00,
    0x6d, 0x69, 0x6e, 0x5f, 0x72, 0x75, 0x6e, 0x74, 0x69, 0x6d, 0x65, 0x5f,
    0x76, 0x65, 0x72, 0x73, 0x69, 0x6f, 0x6e, 0x00, 0x0d, 0x00, 0x00, 0x00,
    0x98, 0x0a, 0x00, 0x00, 0x90, 0x0a, 0x00, 0x00, 0x40, 0x0a, 0x00, 0x00,
    0x24, 0x0a, 0x00, 0x00, 0x94, 0x09, 0x00, 0x00, 0x04, 0x09, 0x00, 0x00,
    0xf4, 0x00, 0x00, 0x00, 0xa4, 0x00, 0x00, 0x00, 0x9c, 0x00, 0x00, 0x00,
    0x94, 0x00, 0x00, 0x00, 0x8c, 0x00, 0x00, 0x00, 0x6c, 0x00, 0x00, 0x00,
    0x04, 0x00, 0x00, 0x00, 0xf2, 0xf5, 0xff, 0xff, 0x04, 0x00, 0x00, 0x00,
    0x58, 0x00, 0x00, 0x00, 0x0c, 0x00, 0x00, 0x00, 0x08, 0x00, 0x0e, 0x00,
    0x08, 0x00, 0x04, 0x00, 0x08, 0x00, 0x00, 0x00, 0x10, 0x00, 0x00, 0x00,
    0x28, 0x00, 0x00, 0x00, 0x00, 0x00, 0x06, 0x00, 0x08, 0x00, 0x04, 0x00,
    0x06, 0x00, 0x00, 0x00, 0x04, 0x00, 0x00, 0x00, 0x01, 0x00, 0x00, 0x00,
    0xea, 0x03, 0x00, 0x00, 0x00, 0x00, 0x0a, 0x00, 0x10, 0x00, 0x0c, 0x00,
    0x08, 0x00, 0x04, 0x00, 0x0a, 0x00, 0x00, 0x00, 0x02, 0x00, 0x00, 0x00,
    0x02, 0x00, 0x00, 0x00, 0x04, 0x00, 0x00, 0x00, 0x06, 0x00, 0x00, 0x00,
    0x32, 0x2e, 0x31, 0x35, 0x2e, 0x30, 0x00, 0x00, 0x56, 0xf6, 0xff, 0xff,
    0x04, 0x00, 0x00, 0x00, 0x10, 0x00, 0x00, 0x00, 0x31, 0x2e, 0x35, 0x2e,
    0x30, 0x00, 0x00, 0x00, 0x00, 0x00, 0x00, 0x00, 0x00, 0x00, 0x00, 0x00,
    0x40, 0xf1, 0xff, 0xff, 0x44, 0xf1, 0xff, 0xff, 0x48, 0xf1, 0xff, 0xff,
    0x7e, 0xf6, 0xff, 0xff, 0x04, 0x00, 0x00, 0x00, 0x40, 0x00, 0x00, 0x00,
    0xaa, 0xb9, 0xf4, 0xbe, 0xd0, 0x84, 0xe5, 0x3d, 0xa7, 0x1e, 0x5d, 0x3e,
    0xb5, 0x8c, 0x0b, 0x3f, 0x40, 0x3d, 0x96, 0x3f, 0xe3, 0x1b, 0xbb, 0xbe,
    0x72, 0x2f, 0x58, 0x3f, 0x5d, 0x6e, 0xc9, 0xbe, 0x5a, 0x5f, 0x7b, 0x3f,
    0x94, 0x3f, 0x64, 0x3e, 0x1b, 0x11, 0x6e, 0xbe, 0x14, 0xc7, 0xe4, 0x3e,
    0x0a, 0x01, 0x2e, 0x3e, 0xbd, 0x69, 0xda, 0xbe, 0xdb, 0xf2, 0x2a, 0x3e,
    0x2e, 0x64, 0x4a, 0xbf, 0xca, 0xf6, 0xff, 0xff, 0x04, 0x00, 0x00, 0x00,
    0x00, 0x08, 0x00, 0x00, 0x94, 0x9f, 0x6d, 0xbe, 0x6c, 0x33, 0x1f, 0x3e,
    0xd2, 0x0f, 0xa2, 0xbe, 0xb4, 0x81, 0x03, 0x3e, 0x3a, 0x79, 0xa3, 0x3e,
    0x05, 0x64, 0x1a, 0xbe, 0x7b, 0x5e, 0xcc, 0x3d, 0x41, 0x1c, 0xa6, 0x3e,
    0xa6, 0xe4, 0xc6, 0xbe, 0x20, 0x27, 0x54, 0x3c, 0xb4, 0x8a, 0xc5, 0xbe,
    0x5e, 0x48, 0x87, 0x3e, 0x70, 0x16, 0xd1, 0xbd, 0x70, 0x40, 0xb5, 0xbe,
    0x7e, 0x1e, 0x9e, 0xbe, 0x40, 0x82, 0xc8, 0x3b, 0x44, 0xbc, 0x85, 0xbe,
    0x62, 0xfe, 0x84, 0x3e, 0x3c, 0x52, 0x9d, 0xbd, 0x2f, 0x9d, 0xa3, 0x3e,
    0x60, 0xb7, 0x2d, 0x3c, 0xfc, 0x40, 0x85, 0xbe, 0x2b, 0x21, 0x75, 0x3e,
    0x00, 0x41, 0xf1, 0xbc, 0x3e, 0x27, 0x26, 0xbd, 0x35, 0xc2, 0x3e, 0xbe,
    0x3f, 0x6e, 0x80, 0xbe, 0x24, 0x3f, 0xa3, 0xbe, 0x76, 0xf6, 0x7b, 0x3e,
    0xc5, 0xde, 0x1e, 0xbe, 0x3e, 0x86, 0x68, 0xbe, 0x24, 0x8f, 0xb5, 0xbd,
    0xb6, 0xb0, 0x62, 0x3e, 0xcc, 0x9b, 0x71, 0x3e, 0xca, 0x88, 0x00, 0xbe,
    0x50, 0xc8, 0x47, 0xbd, 0xc9, 0x46, 0xfb, 0x3d, 0x8e, 0x7e, 0x37, 0x3e,
    0x49, 0xd5, 0x65, 0x3e, 0x64, 0x42, 0x22, 0xbe, 0xb1, 0x8c, 0x94, 0x3e,
    0x95, 0xe7, 0x2a, 0xbe, 0xf1, 0x52, 0xd1, 0xbd, 0xdf, 0x26, 0xd0, 0xbd,
    0x68, 0xce, 0x92, 0x3e, 0x05, 0x70, 0x15, 0x3e, 0xf3, 0xc9, 0xb2, 0xbe,
    0x81, 0xd1, 0xee, 0x3c, 0xe1, 0x8f, 0x13, 0x3e, 0x26, 0x1c, 0xa6, 0xbe,
    0xb9, 0x32, 0xa0, 0xbe, 0xf9, 0xc4, 0xa2, 0x3e, 0x38, 0x4c, 0x35, 0x3e,
    0xfa, 0x87, 0xda, 0xbb, 0x5e, 0xab, 0x7e, 0xbe, 0xa4, 0x36, 0x86, 0xbe,
    0xac, 0x79, 0x06, 0xbe, 0x48, 0xfe, 0x63, 0xbd, 0x63, 0x8a, 0x69, 0xbe,
    0x80, 0x31, 0xf7, 0xbd, 0x99, 0x9e, 0xa9, 0xbd, 0x2d, 0x4c, 0x04, 0xbe,
    0x60, 0x33, 0xc0, 0xbd, 0xc8, 0xd1, 0x9a, 0x3d, 0x5f, 0xb2, 0x40, 0xbd,
    0x9e, 0xdd, 0x74, 0x3e, 0x35, 0x9c, 0x57, 0x3d, 0x68, 0x44, 0x9d, 0x3d,
    0x12, 0xab, 0x9d, 0x3c, 0xe0, 0x73, 0xcf, 0xbd, 0xfe, 0x05, 0xbb, 0x3d,
    0x4d, 0x06, 0xb2, 0x3e, 0xb4, 0x63, 0x52, 0x3e, 0x63, 0xb1, 0x53, 0xbe,
    0x5c, 0xb0, 0x74, 0xbd, 0x1c, 0x7f, 0x04, 0xbd, 0xbc, 0x89, 0xd3, 0x3d,
    0x05, 0x2e, 0x58, 0x3e, 0xd6, 0xa1, 0x26, 0x3e, 0x1c, 0xcb, 0x4c, 0xbd,
    0xd9, 0x18, 0x9e, 0xbe, 0x5f, 0x27, 0xe8, 0xbc, 0x22, 0x47, 0x5a, 0x3e,
    0x30, 0xfb, 0xaf, 0xbd, 0x00, 0x58, 0xaa, 0xbe, 0xcb, 0x1b, 0x37, 0x3d,
    0xf3, 0xd4, 0xa5, 0xbe, 0xb4, 0xba, 0xd1, 0xbd, 0xd7, 0xcd, 0x5f, 0xbd,
    0xd4, 0xb1, 0xe1, 0xbd, 0x7e, 0x35, 0x56, 0xbe, 0x5d, 0x13, 0x7d, 0xbd,
    0xdd, 0x37, 0x7f, 0x3e, 0x23, 0x18, 0x44, 0xbe, 0xe2, 0xc5, 0xbe, 0xbd,
    0xea, 0xe0, 0xa0, 0xbe, 0x81, 0x14, 0xa6, 0x3e, 0xf4, 0xe1, 0x71, 0x3e,
    0x4a, 0xbd, 0x59, 0x3e, 0x28, 0xd1, 0x44, 0xbd, 0x90, 0x1d, 0x44, 0xbf,
    0x0e, 0x44, 0x81, 0xbe, 0x9f, 0xb0, 0xb7, 0xbd, 0x44, 0x19, 0x82, 0x3d,
    0x12, 0x8d, 0xa7, 0x3e, 0x49, 0x5c, 0x48, 0xbd, 0xa1, 0xc8, 0x69, 0x3e,
    0x94, 0x3e, 0x8e, 0x3e, 0x1f, 0x78, 0xb9, 0x3e, 0x28, 0xc6, 0x55, 0x3e,
    0x2b, 0x91, 0xb3, 0x3e, 0x09, 0xe0, 0xb6, 0xbc, 0x16, 0xdc, 0xc8, 0x3e,
    0xae, 0x8e, 0x94, 0x3d, 0x00, 0x96, 0x0d, 0x3c, 0xc0, 0x38, 0x3e, 0x3d,
    0x8b, 0x43, 0xbe, 0x3d, 0x43, 0x2e, 0x59, 0x3e, 0xf8, 0x7c, 0x0e, 0xbe,
    0xee, 0xb6, 0x59, 0x3e, 0x4c, 0x6e, 0x1a, 0xbd, 0xfb, 0xc2, 0x94, 0x3e,
    0xd0, 0x1f, 0xd3, 0xbd, 0x77, 0xda, 0x67, 0xbe, 0x6c, 0x3c, 0x16, 0x3e,
    0x1e, 0x36, 0x6e, 0xbe, 0x89, 0xbd, 0x95, 0xbe, 0x7e, 0x40, 0x1c, 0x3e,
    0xe8, 0x75, 0x4d, 0xbf, 0x51, 0x91, 0xb9, 0xbd, 0x97, 0x30, 0x7f, 0x3e,
    0x8a, 0x40, 0x1c, 0x3e, 0x24, 0x35, 0x00, 0x3f, 0xa5, 0xa2, 0x72, 0xbe,
    0xda, 0x83, 0x9f, 0xbe, 0x24, 0x18, 0x76, 0xbe, 0x6c, 0x38, 0xd2, 0xbe,
    0x69, 0x8f, 0x53, 0xbf, 0x8d, 0x2c, 0xce, 0x3e, 0x93, 0xf2, 0xa8, 0x3d,
    0xef, 0x51, 0x24, 0xbf, 0xe0, 0x84, 0xd0, 0xbe, 0xa0, 0xbc, 0x30, 0xbc,
    0x9c, 0x53, 0x00, 0xbf, 0xb1, 0xb2, 0x3f, 0xbe, 0xa2, 0x9b, 0xb0, 0x3e,
    0x42, 0x15, 0x13, 0xbe, 0xb8, 0xae, 0xf5, 0xbd, 0x3b, 0xf7, 0xac, 0xbe,
    0xca, 0xc6, 0x3d, 0x3e, 0x63, 0x9f, 0x59, 0xbd, 0xd3, 0xa0, 0x84, 0xbe,
    0x48, 0xe6, 0x0b, 0x3f, 0xba, 0x60, 0x7a, 0x3e, 0x0a, 0x49, 0x4f, 0xbd,
    0x1f, 0xa0, 0x87, 0x3e, 0xbe, 0xee, 0xc8, 0xbd, 0x99, 0x59, 0x00, 0x3d,
    0xa8, 0x89, 0x22, 0x3e, 0x29, 0x52, 0x93, 0x3e, 0x1c, 0x25, 0x0c, 0xbf,
    0xb6, 0x2d, 0x8d, 0xbe, 0x45, 0x05, 0xec, 0x3e, 0x80, 0x23, 0xaf, 0xbc,
    0xa0, 0x71, 0x41, 0x3f, 0xf6, 0xcc, 0x16, 0x3e, 0x1c, 0x2e, 0x32, 0x3d,
    0x8e, 0x87, 0x7e, 0xbe, 0x42, 0x3f, 0x5b, 0x3e, 0x92, 0xe1, 0x8b, 0xbe,
    0x6d, 0xba, 0x57, 0xbd, 0x46, 0x11, 0x28, 0xbe, 0x31, 0xdc, 0x4e, 0xbe,
    0x44, 0x52, 0x73, 0x3e, 0x9e, 0x1e, 0x43, 0x3e, 0xf5, 0xf9, 0xcd, 0xbe,
    0xcd, 0x74, 0x30, 0xbe, 0x01, 0x4f, 0x5b, 0xbe, 0x86, 0x17, 0x6a, 0x3e,
    0xce, 0x6e, 0xdd, 0xbd, 0x04, 0x4c, 0x01, 0x3e, 0x98, 0xe7, 0xa0, 0xbe,
    0x89, 0x49, 0x1d, 0x3e, 0x78, 0x32, 0x0e, 0x3d, 0x26, 0x37, 0x04, 0x3e,
    0xeb, 0xa6, 0xa0, 0x3e, 0x58, 0x12, 0xdb, 0xbd, 0x79, 0xa0, 0xd5, 0x3e,
    0x01, 0x0c, 0x7f, 0x3e, 0xa6, 0xdb, 0x93, 0xbd, 0x88, 0xae, 0x73, 0xbe,
    0x55, 0xdb, 0x90, 0xbe, 0xdb, 0x23, 0xa4, 0x3e, 0xc1, 0x39, 0x62, 0xbe,
    0x90, 0x7f, 0x91, 0xbd, 0x8f, 0xf5, 0xb2, 0x3e, 0x24, 0x42, 0x69, 0xbf,
    0xcf, 0x6e, 0xac, 0x3e, 0x4a, 0x3c, 0xa6, 0xbe, 0xf0, 0xa5, 0x0d, 0xbd,
    0xc9, 0x99, 0xae, 0x3d, 0x22, 0x49, 0xbb, 0x3b, 0x51, 0x39, 0x91, 0x3b,
    0x52, 0x8c, 0x8c, 0x3d, 0x61, 0x72, 0x45, 0x3f, 0xe7, 0x28, 0xa6, 0x3d,
    0x65, 0xd5, 0x8b, 0x3e, 0x23, 0xcf, 0xa2, 0x3d, 0x7e, 0xf2, 0xba, 0x3e,
    0xd8, 0x26, 0x0e, 0x3e, 0x0a, 0x27, 0x3e, 0x3e, 0xa3, 0x3d, 0xa7, 0xbe,
    0xe7, 0xd2, 0x71, 0x3d, 0x09, 0x01, 0x88, 0x3e, 0xd7, 0x60, 0xef, 0xbd,
    0x1c, 0x8d, 0x93, 0x3d, 0x12, 0x08, 0xea, 0xbd, 0x52, 0x6f, 0x65, 0x3e,
    0xad, 0x16, 0x4a, 0xbe, 0x60, 0x52, 0x4d, 0xbe, 0xd9, 0x2e, 0xb2, 0x3e,
    0x4b, 0xcb, 0xca, 0x3e, 0x1b, 0xe5, 0x12, 0x3e, 0x68, 0x17, 0x0f, 0xbd,
    0x08, 0x47, 0x6e, 0xbd, 0x0e, 0x67, 0xb7, 0xbe, 0x0d, 0x73, 0x75, 0x3e,
    0xc0, 0xf2, 0xc7, 0xbd, 0x24, 0xb6, 0x04, 0x3f, 0xca, 0xe9, 0x97, 0xbe,
    0x5a, 0xfa, 0x78, 0x3e, 0x68, 0x69, 0xa8, 0xbe, 0x16, 0xb7, 0x82, 0xbe,
    0x98, 0x10, 0x2a, 0x3d, 0x7b, 0xe0, 0xf3, 0xbc, 0x20, 0x7d, 0x67, 0xbe,
    0xaa, 0x18, 0x35, 0xbe, 0xba, 0xba, 0x75, 0x3e, 0x5b, 0x9e, 0x8e, 0x3e,
    0xd3, 0xf2, 0x39, 0xbe, 0x3c, 0x31, 0xc7, 0xbe, 0xdf, 0x07, 0xae, 0x3e,
    0x98, 0xce, 0xd1, 0x3d, 0xc0, 0xa5, 0x8a, 0xbc, 0x20, 0x1d, 0x30, 0xbe,
    0xb5, 0x4d, 0x62, 0x3e, 0x4f, 0x45, 0x91, 0xbe, 0xe0, 0xba, 0xae, 0xbc,
    0x75, 0x60, 0x37, 0x3e, 0x79, 0xde, 0xad, 0x3e, 0x48, 0xce, 0x73, 0xbe,
    0x5e, 0xda, 0xc9, 0x3e, 0x5e, 0x57, 0x9e, 0xbd, 0x9c, 0x50, 0x79, 0xbd,
    0x8f, 0x7c, 0xbf, 0x3e, 0x1c, 0xbc, 0x0f, 0x3e, 0xe4, 0x96, 0x12, 0xbf,
    0xcf, 0xe6, 0x1b, 0x3d, 0x40, 0x4e, 0x8c, 0x3e, 0xd6, 0x40, 0x9f, 0xbe,
    0x3a, 0x57, 0x9c, 0x3e, 0x6e, 0x54, 0x37, 0x3e, 0x19, 0x5b, 0x45, 0x3e,
    0x38, 0x39, 0xbc, 0xbd, 0xe6, 0xc3, 0x50, 0xbe, 0x2b, 0x07, 0x94, 0xbe,
    0xd1, 0x9b, 0x51, 0x3e, 0x45, 0x2d, 0x72, 0x3e, 0x9b, 0x07, 0x66, 0xbf,
    0x51, 0xaf, 0x98, 0xbe, 0x87, 0x86, 0x81, 0x3e, 0x4b, 0x80, 0x77, 0xbe,
    0x72, 0xd2, 0x3d, 0xbe, 0xcc, 0x8f, 0x34, 0xbe, 0xa0, 0xdc, 0x59, 0xbe,
    0x2f, 0x82, 0x1e, 0xbe, 0x77, 0x27, 0xe0, 0xbe, 0x91, 0xf7, 0x9a, 0xbe,
    0x1c, 0x0b, 0x48, 0x3e, 0x5d, 0xe2, 0x20, 0xbe, 0x56, 0x4d, 0x0a, 0x3f,
    0xd2, 0x53, 0x16, 0xbe, 0x48, 0x65, 0xb1, 0xbe, 0x15, 0xac, 0xa2, 0x3e,
    0xc9, 0x52, 0x03, 0x3e, 0x1a, 0xcb, 0x17, 0xbf, 0x5e, 0xe3, 0x6f, 0x3e,
    0x74, 0xb9, 0xd8, 0x3d, 0x3c, 0x85, 0xb2, 0xbd, 0x16, 0x1e, 0x73, 0x3e,
    0xa8, 0x52, 0x01, 0x3d, 0x34, 0xcc, 0xce, 0xbd, 0xf0, 0x71, 0x91, 0xbc,
    0x10, 0xc2, 0xd5, 0xbd, 0xc0, 0xae, 0xad, 0x3b, 0xd0, 0xba, 0xdf, 0x3d,
    0xdb, 0xa1, 0x29, 0xbe, 0xbc, 0xd1, 0x76, 0xbe, 0xc7, 0x61, 0x2d, 0xbe,
    0x0d, 0x24, 0xa0, 0xbe, 0x80, 0x67, 0x7a, 0xbb, 0xb8, 0xdb, 0x08, 0xbd,
    0x20, 0xbd, 0xaf, 0xbc, 0x90, 0x39, 0x94, 0x3d, 0x65, 0x44, 0x9f, 0xbe,
    0x91, 0xcf, 0x8c, 0x3e, 0xf4, 0xe3, 0xba, 0x3d, 0x70, 0x79, 0x4f, 0x3d,
    0x3b, 0xc5, 0x88, 0xbe, 0x3e, 0xee, 0x82, 0xbe, 0x6c, 0x21, 0x04, 0x3e,
    0x40, 0x4b, 0xb0, 0x3c, 0x8e, 0xc1, 0x06, 0x3e, 0x60, 0x45, 0xc6, 0x3c,
    0xf2, 0x0f, 0x40, 0x3e, 0x04, 0xe8, 0xb0, 0xbd, 0x78, 0x76, 0x6a, 0xbe,
    0x5d, 0xe8, 0xb3, 0x3e, 0xda, 0xc1, 0x32, 0xbe, 0x4e, 0x42, 0x15, 0x3e,
    0x6e, 0xb1, 0x1d, 0xbf, 0x01, 0xd9, 0x7a, 0x3c, 0x19, 0x0e, 0xb9, 0xbc,
    0xcd, 0xc7, 0x31, 0xbe, 0x29, 0x17, 0x8b, 0x3b, 0x0b, 0x18, 0x8b, 0x3e,
    0xb1, 0x1d, 0x4c, 0x3e, 0x58, 0x05, 0xdf, 0xbd, 0xc0, 0x22, 0x8e, 0x3e,
    0x90, 0x1c, 0x2a, 0x3e, 0xc5, 0x63, 0x5e, 0x3d, 0x39, 0x25, 0x5c, 0x3e,
    0x82, 0xe6, 0x18, 0xbf, 0x01, 0x48, 0x8a, 0x3e, 0xf0, 0x6a, 0xa5, 0xbd,
    0x86, 0xb1, 0x37, 0xbd, 0xd0, 0x8c, 0x99, 0xbe, 0x02, 0x4c, 0x48, 0x3e,
    0x58, 0xc9, 0x18, 0xbd, 0x20, 0x10, 0xc2, 0xbd, 0x5e, 0x42, 0x64, 0xbe,
    0x4b, 0x03, 0xa5, 0x3e, 0x48, 0x26, 0xf0, 0xbd, 0x58, 0x5c, 0xf0, 0xbd,
    0xde, 0xed, 0x34, 0x3e, 0x38, 0xe2, 0x72, 0xbe, 0xa5, 0x9f, 0x6c, 0xbd,
    0x3b, 0x67, 0x3c, 0x3e, 0xbc, 0x41, 0x7a, 0xbe, 0x79, 0x63, 0x7a, 0x3e,
    0x9f, 0x48, 0x51, 0xbe, 0xf4, 0xd6, 0x00, 0x3e, 0x14, 0xdf, 0x08, 0xbe,
    0xc4, 0x02, 0x8a, 0x3e, 0xed, 0x05, 0xf5, 0xbd, 0x00, 0xff, 0x23, 0xbc,
    0x19, 0x33, 0x95, 0x3d, 0x4f, 0xc9, 0x8c, 0x3e, 0x17, 0x56, 0x06, 0x3e,
    0x3b, 0xd0, 0xa0, 0x3e, 0x79, 0xe0, 0x3b, 0xbd, 0x52, 0x79, 0xce, 0x3b,
    0x39, 0xa1, 0xac, 0xbe, 0x83, 0x2b, 0x1c, 0xbe, 0x6d, 0x87, 0x8e, 0xbd,
    0x3c, 0x79, 0x89, 0xbe, 0xac, 0x37, 0xc1, 0xbd, 0x9f, 0x25, 0x70, 0xbe,
    0xde, 0x3b, 0x34, 0x3e, 0x9a, 0xd5, 0x58, 0x3e, 0x21, 0x67, 0xb4, 0x3e,
    0xe0, 0x24, 0x08, 0x3e, 0x37, 0x9a, 0x23, 0x3e, 0x64, 0x22, 0xb8, 0xbe,
    0xca, 0x13, 0x63, 0xbd, 0x20, 0xeb, 0x7c, 0xbd, 0x3c, 0xd1, 0xbb, 0x3d,
    0xd0, 0x49, 0x91, 0xbc, 0x0c, 0x3a, 0x93, 0x3e, 0x17, 0x8f, 0x08, 0xbe,
    0x84, 0xaa, 0x7a, 0x3e, 0x00, 0xfc, 0x9d, 0xbc, 0xd5, 0xd4, 0x47, 0x3e,
    0x63, 0xc0, 0xa0, 0x3e, 0x6f, 0xc8, 0xd1, 0x3e, 0x46, 0xc7, 0x29, 0xbe,
    0x74, 0x17, 0xa3, 0xbe, 0x93, 0x88, 0x04, 0xbe, 0x4f, 0x51, 0x2c, 0xbd,
    0xef, 0xae, 0x8c, 0x3e, 0xf4, 0x18, 0x9a, 0xbe, 0x38, 0xcf, 0xbc, 0xbd,
    0x83, 0xeb, 0x08, 0xbe, 0xfe, 0x23, 0x79, 0x3e, 0xcd, 0x14, 0xa2, 0x3a,
    0x75, 0x9f, 0x87, 0x3e, 0xaa, 0x1c, 0x5f, 0x3b, 0x67, 0x89, 0x6c, 0x3e,
    0x78, 0x27, 0x43, 0x3d, 0xdf, 0xf5, 0xf5, 0xbd, 0x80, 0x4d, 0xd3, 0x3d,
    0x93, 0x6c, 0x83, 0x3e, 0xdd, 0x9b, 0x26, 0xbe, 0x4a, 0xec, 0x6b, 0xbe,
    0xa9, 0x79, 0xe5, 0x3d, 0xe0, 0xbc, 0x98, 0xbd, 0xec, 0xfe, 0x48, 0x3e,
    0x08, 0x12, 0x91, 0xbe, 0x49, 0x11, 0x56, 0xbd, 0x71, 0x4d, 0x11, 0xbe,
    0xb5, 0xf6, 0x92, 0x3d, 0x5d, 0x4d, 0x15, 0x3e, 0xae, 0xc9, 0xb0, 0xbe,
    0x85, 0x71, 0x8e, 0xbe, 0xbb, 0xd9, 0x4b, 0x3e, 0xf1, 0xae, 0x24, 0xbe,
    0xa9, 0x61, 0xdc, 0xbe, 0x69, 0x84, 0xb9, 0xbb, 0x29, 0x6f, 0x3b, 0xbe,
    0xd0, 0x52, 0x76, 0xbd, 0x9a, 0xa4, 0x28, 0xbc, 0x9d, 0x56, 0x99, 0xbe,
    0x5c, 0x15, 0xad, 0x3c, 0x62, 0xdf, 0x2c, 0xbe, 0x34, 0x4f, 0x7a, 0x3e,
    0xb2, 0x99, 0x9a, 0xbe, 0xa5, 0x87, 0xd4, 0x39, 0xa1, 0x14, 0x0c, 0xbe,
    0xa4, 0x95, 0xad, 0xbe, 0x34, 0x65, 0x10, 0x3e, 0xd6, 0xc9, 0x7d, 0x3e,
    0x54, 0xd8, 0x90, 0xbe, 0x03, 0x53, 0x84, 0x3e, 0xff, 0xda, 0x07, 0x3e,
    0x9f, 0x91, 0x91, 0x3e, 0xb0, 0xb7, 0x86, 0x3c, 0x3c, 0x2f, 0x40, 0x3e,
    0x2c, 0x71, 0x98, 0x3e, 0xb1, 0x4c, 0x80, 0xbe, 0xda, 0x06, 0x7f, 0x3e,
    0x60, 0x21, 0x1b, 0x3d, 0x24, 0xad, 0x95, 0xbd, 0xff, 0xa8, 0x86, 0xbe,
    0x4f, 0x19, 0x0d, 0xbe, 0xc9, 0x8a, 0x6e, 0x3e, 0x56, 0xc8, 0x27, 0xbd,
    0xc0, 0x04, 0x0f, 0x3b, 0x28, 0xa4, 0x78, 0xbd, 0x34, 0x77, 0x39, 0x3d,
    0xf8, 0x4f, 0x1c, 0xbd, 0x2d, 0xbb, 0xde, 0xbe, 0x3f, 0xe4, 0x95, 0x3e,
    0x8a, 0x3e, 0xf4, 0xbd, 0x55, 0xde, 0x91, 0x3e, 0x1b, 0xdc, 0x3f, 0x3d,
    0x4b, 0xa6, 0x85, 0x3e, 0x1e, 0x65, 0xbe, 0x3e, 0x2c, 0xbc, 0xce, 0x3d,
    0x2e, 0xf6, 0x9f, 0x3e, 0xae, 0x1b, 0x31, 0x3e, 0x13, 0x45, 0x09, 0x3f,
    0x2d, 0x7f, 0x59, 0xbe, 0xc8, 0x3e, 0x97, 0x3d, 0xee, 0xcb, 0xf5, 0xbd,
    0x65, 0x07, 0xe0, 0x3e, 0xf9, 0x36, 0x47, 0x3e, 0xaa, 0x1e, 0x0c, 0x3e,
    0x20, 0x82, 0xee, 0x3c, 0xd3, 0xd6, 0xfe, 0xbd, 0x7f, 0xfd, 0x4e, 0xbd,
    0xaa, 0xd0, 0xb4, 0xbe, 0x40, 0xef, 0x51, 0x3c, 0x61, 0x43, 0xa1, 0x3d,
    0xcb, 0xf7, 0x9b, 0x3e, 0x83, 0x32, 0x7d, 0x3e, 0x3f, 0x9e, 0x52, 0x3d,
    0x25, 0x61, 0xc1, 0xbd, 0x5c, 0x95, 0xec, 0xbc, 0x0e, 0xb9, 0xd6, 0x3d,
    0xa6, 0xa5, 0x1e, 0x3e, 0xe8, 0x26, 0x69, 0x3e, 0x3d, 0xa8, 0x17, 0xbf,
    0xcd, 0xaf, 0x0d, 0x3f, 0x6b, 0x2f, 0x9a, 0xbe, 0xa5, 0xb3, 0xdf, 0x3e,
    0xa8, 0x92, 0x89, 0xbe, 0x86, 0x34, 0x0f, 0xbf, 0x70, 0x3f, 0xb9, 0x3d,
    0xf3, 0xb0, 0xdc, 0xbd, 0xd4, 0x38, 0xdf, 0x3d, 0x9f, 0x66, 0xe5, 0x3e,
    0x13, 0x41, 0x24, 0x3e, 0x34, 0x35, 0xca, 0xbd, 0xf2, 0x04, 0x3e, 0xbf,
    0x12, 0x11, 0x5c, 0x3e, 0x33, 0x86, 0xb5, 0xbe, 0x4f, 0xe0, 0x92, 0xbe,
    0x31, 0xdb, 0xb3, 0xbe, 0x15, 0x4b, 0x89, 0x3e, 0xa7, 0xa4, 0xb0, 0x3e,
    0xd0, 0x6b, 0x9f, 0x3e, 0x59, 0x56, 0x5c, 0xbf, 0x4a, 0x88, 0x87, 0x3d,
    0x99, 0x8a, 0x80, 0x3e, 0xe8, 0xa7, 0x60, 0x3f, 0x12, 0x40, 0x76, 0xbe,
    0x67, 0x08, 0x99, 0xbe, 0x95, 0xa2, 0x2f, 0x3d, 0x8a, 0xc8, 0x5f, 0xbf,
    0x5e, 0x9a, 0x9c, 0x3f, 0x6b, 0x71, 0x81, 0x3e, 0x82, 0xfb, 0x1f, 0x3e,
    0xd6, 0xfe, 0xff, 0xff, 0x04, 0x00, 0x00, 0x00, 0x80, 0x00, 0x00, 0x00,
    0xc5, 0x81, 0x87, 0x3e, 0x2a, 0x2d, 0x2f, 0x3e, 0xb9, 0xda, 0xb2, 0x3d,
    0xb8, 0x10, 0x49, 0xbd, 0x4a, 0xa4, 0x54, 0x3c, 0x91, 0xbb, 0xa1, 0xbe,
    0x98, 0xea, 0xa4, 0x3e, 0x1a, 0x17, 0x25, 0xbe, 0x6d, 0x5e, 0xc2, 0x3e,
    0x38, 0x70, 0x86, 0x3d, 0x53, 0xe8, 0x98, 0x3e, 0x79, 0xe3, 0x85, 0x3e,
    0xcd, 0x3f, 0x64, 0x3e, 0x74, 0x09, 0xcd, 0x3e, 0x09, 0xbc, 0x6a, 0xbe,
    0x51, 0x7b, 0xf5, 0x3d, 0xa1, 0xfc, 0x2c, 0x3e, 0x73, 0x26, 0xbb, 0x3e,
    0xdb, 0x7d, 0xaf, 0xbe, 0x31, 0xd3, 0xb4, 0xbe, 0x51, 0xdd, 0x87, 0x3e,
    0xde, 0x6c, 0xbf, 0x3e, 0x15, 0x3b, 0x13, 0x3e, 0xa4, 0x74, 0xa3, 0xbe,
    0xc9, 0x94, 0x94, 0x3c, 0xa4, 0x3d, 0xee, 0xbd, 0x0a, 0x57, 0xb6, 0x3e,
    0x0f, 0xe2, 0x92, 0x3e, 0x1c, 0x81, 0x78, 0x3e, 0xce, 0xef, 0x87, 0x3d,
    0x0c, 0x19, 0x92, 0x3e, 0x7a, 0x1c, 0x63, 0xbe, 0x62, 0xff, 0xff, 0xff,
    0x04, 0x00, 0x00, 0x00, 0x80, 0x00, 0x00, 0x00, 0xbc, 0x1f, 0x25, 0xbf,
    0x70, 0x48, 0x72, 0xbc, 0x8b, 0xe0, 0x92, 0x3e, 0x00, 0x00, 0x00, 0x00,
    0x68, 0xc7, 0x67, 0x3f, 0x00, 0x00, 0x00, 0x00, 0x22, 0xea, 0x9d, 0x3d,
    0x00, 0x00, 0x00, 0x00, 0x09, 0x49, 0xb4, 0xbe, 0x70, 0xef, 0x0e, 0xbe,
    0xec, 0xe8, 0xdc, 0x3d, 0x17, 0x4f, 0x66, 0xbd, 0xca, 0xb6, 0x36, 0xbf,
    0x76, 0x3f, 0x54, 0xbe, 0x00, 0x00, 0x00, 0x00, 0xb5, 0xf5, 0x89, 0xbe,
    0xa6, 0x77, 0xf5, 0xbe, 0xf2, 0x94, 0x36, 0x3d, 0x00, 0x00, 0x00, 0x00,
    0x00, 0x00, 0x00, 0x00, 0xb1, 0xfe, 0xa5, 0xbe, 0x5a, 0xa0, 0x20, 0xbd,
    0xff, 0xb2, 0x14, 0x3d, 0x00, 0x00, 0x00, 0x00, 0x07, 0x21, 0x3e, 0x3e,
    0x00, 0x00, 0x00, 0x00, 0xcc, 0x31, 0xaf, 0xbe, 0xe8, 0xc0, 0x0a, 0x3f,
    0xc3, 0x1d, 0xd7, 0xbc, 0xe7, 0xa7, 0x7c, 0xbd, 0x2b, 0xcb, 0x8a, 0x3e,
    0x00, 0x00, 0x00, 0x00, 0xee, 0xff, 0xff, 0xff, 0x04, 0x00, 0x00, 0x00,
    0x04, 0x00, 0x00, 0x00, 0x7b, 0xbe, 0x43, 0xbe, 0x00, 0x00, 0x06, 0x00,
    0x08, 0x00, 0x04, 0x00, 0x06, 0x00, 0x00, 0x00, 0x04, 0x00, 0x00, 0x00,
    0x40, 0x00, 0x00, 0x00, 0x30, 0x9d, 0xd7, 0xbc, 0x08, 0x32, 0x3f, 0xbc,
    0x15, 0x96, 0x3d, 0xbb, 0xb8, 0x44, 0x4e, 0xbe, 0x65, 0x64, 0x85, 0x3e,
    0x59, 0x4f, 0x69, 0x3e, 0x0b, 0x72, 0x91, 0xbe, 0x90, 0x21, 0x1c, 0x3e,
    0x9c, 0xf3, 0x81, 0x3e, 0x00, 0x00, 0x00, 0x00, 0xc3, 0xc5, 0xcb, 0x3d,
    0x82, 0x91, 0x7a, 0xbc, 0x1d, 0x06, 0x09, 0xbe, 0xb0, 0xaf, 0xdf, 0x3d,
    0xe7, 0x67, 0x34, 0xbe, 0x08, 0x4b, 0x1c, 0x3f, 0x20, 0xfb, 0xff, 0xff,
    0x24, 0xfb, 0xff, 0xff, 0x0f, 0x00, 0x00, 0x00, 0x4d, 0x4c, 0x49, 0x52,
    0x20, 0x43, 0x6f, 0x6e, 0x76, 0x65, 0x72, 0x74, 0x65, 0x64, 0x2e, 0x00,
    0x01, 0x00, 0x00, 0x00, 0x14, 0x00, 0x00, 0x00, 0x00, 0x00, 0x0e, 0x00,
    0x18, 0x00, 0x14, 0x00, 0x10, 0x00, 0x0c, 0x00, 0x08, 0x00, 0x04, 0x00,
    0x0e, 0x00, 0x00, 0x00, 0x14, 0x00, 0x00, 0x00, 0x1c, 0x00, 0x00, 0x00,
    0xd8, 0x00, 0x00, 0x00, 0xdc, 0x00, 0x00, 0x00, 0xe0, 0x00, 0x00, 0x00,
    0x04, 0x00, 0x00, 0x00, 0x6d, 0x61, 0x69, 0x6e, 0x00, 0x00, 0x00, 0x00,
    0x03, 0x00, 0x00, 0x00, 0x80, 0x00, 0x00, 0x00, 0x38, 0x00, 0x00, 0x00,
    0x04, 0x00, 0x00, 0x00, 0x9a, 0xff, 0xff, 0xff, 0x10, 0x00, 0x00, 0x00,
    0x00, 0x00, 0x00, 0x08, 0x0c, 0x00, 0x00, 0x00, 0x10, 0x00, 0x00, 0x00,
    0x9c, 0xfb, 0xff, 0xff, 0x01, 0x00, 0x00, 0x00, 0x09, 0x00, 0x00, 0x00,
    0x03, 0x00, 0x00, 0x00, 0x08, 0x00, 0x00, 0x00, 0x06, 0x00, 0x00, 0x00,
    0x02, 0x00, 0x00, 0x00, 0xca, 0xff, 0xff, 0xff, 0x10, 0x00, 0x00, 0x00,
    0x00, 0x00, 0x00, 0x08, 0x10, 0x00, 0x00, 0x00, 0x14, 0x00, 0x00, 0x00,
    0xba, 0xff, 0xff, 0xff, 0x00, 0x00, 0x00, 0x01, 0x01, 0x00, 0x00, 0x00,
    0x08, 0x00, 0x00, 0x00, 0x03, 0x00, 0x00, 0x00, 0x07, 0x00, 0x00, 0x00,
    0x05, 0x00, 0x00, 0x00, 0x01, 0x00, 0x00, 0x00, 0x00, 0x00, 0x0e, 0x00,
    0x16, 0x00, 0x00, 0x00, 0x10, 0x00, 0x0c, 0x00, 0x0b, 0x00, 0x04, 0x00,
    0x0e, 0x00, 0x00, 0x00, 0x18, 0x00, 0x00, 0x00, 0x00, 0x00, 0x00, 0x08,
    0x18, 0x00, 0x00, 0x00, 0x1c, 0x00, 0x00, 0x00, 0x00, 0x00, 0x06, 0x00,
    0x08, 0x00, 0x07, 0x00, 0x06, 0x00, 0x00, 0x00, 0x00, 0x00, 0x00, 0x01,
    0x01, 0x00, 0x00, 0x00, 0x07, 0x00, 0x00, 0x00, 0x03, 0x00, 0x00, 0x00,
    0x00, 0x00, 0x00, 0x00, 0x04, 0x00, 0x00, 0x00, 0x03, 0x00, 0x00, 0x00,
    0x01, 0x00, 0x00, 0x00, 0x09, 0x00, 0x00, 0x00, 0x01, 0x00, 0x00, 0x00,
    0x00, 0x00, 0x00, 0x00, 0x0a, 0x00, 0x00, 0x00, 0x8c, 0x03, 0x00, 0x00,
    0x1c, 0x03, 0x00, 0x00, 0xac, 0x02, 0x00, 0x00, 0x58, 0x02, 0x00, 0x00,
    0x10, 0x02, 0x00, 0x00, 0xc4, 0x01, 0x00, 0x00, 0x78, 0x01, 0x00, 0x00,
    0xf0, 0x00, 0x00, 0x00, 0x60, 0x00, 0x00, 0x00, 0x04, 0x00, 0x00, 0x00,
    0xb2, 0xfc, 0xff, 0xff, 0x00, 0x00, 0x00, 0x01, 0x14, 0x00, 0x00, 0x00,
    0x1c, 0x00, 0x00, 0x00, 0x1c, 0x00, 0x00, 0x00, 0x0a, 0x00, 0x00, 0x00,
    0x34, 0x00, 0x00, 0x00, 0x02, 0x00, 0x00, 0x00, 0xff, 0xff, 0xff, 0xff,
    0x01, 0x00, 0x00, 0x00, 0x9c, 0xfc, 0xff, 0xff, 0x19, 0x00, 0x00, 0x00,
    0x53, 0x74, 0x61, 0x74, 0x65, 0x66, 0x75, 0x6c, 0x50, 0x61, 0x72, 0x74,
    0x69, 0x74, 0x69, 0x6f, 0x6e, 0x65, 0x64, 0x43, 0x61, 0x6c, 0x6c, 0x3a,
    0x30, 0x00, 0x00, 0x00, 0x02, 0x00, 0x00, 0x00, 0x01, 0x00, 0x00, 0x00,
    0x01, 0x00, 0x00, 0x00, 0x0a, 0xfd, 0xff, 0xff, 0x00, 0x00, 0x00, 0x01,
    0x14, 0x00, 0x00, 0x00, 0x1c, 0x00, 0x00, 0x00, 0x1c, 0x00, 0x00, 0x00,
    0x09, 0x00, 0x00, 0x00, 0x68, 0x00, 0x00, 0x00, 0x02, 0x00, 0x00, 0x00,
    0xff, 0xff, 0xff, 0xff, 0x10, 0x00, 0x00, 0x00, 0xf4, 0xfc, 0xff, 0xff,
    0x4c, 0x00, 0x00, 0x00, 0x73, 0x65, 0x71, 0x75, 0x65, 0x6e, 0x74, 0x69,
    0x61, 0x6c, 0x2f, 0x64, 0x65, 0x6e, 0x73, 0x65, 0x5f, 0x31, 0x2f, 0x4d,
    0x61, 0x74, 0x4d, 0x75, 0x6c, 0x3b, 0x73, 0x65, 0x71, 0x75, 0x65, 0x6e,
    0x74, 0x69, 0x61, 0x6c, 0x2f, 0x64, 0x65, 0x6e, 0x73, 0x65, 0x5f, 0x31,
    0x2f, 0x52, 0x65, 0x6c, 0x75, 0x3b, 0x73, 0x65, 0x71, 0x75, 0x65, 0x6e,
    0x74, 0x69, 0x61, 0x6c, 0x2f, 0x64, 0x65, 0x6e, 0x73, 0x65, 0x5f, 0x31,
    0x2f, 0x42, 0x69, 0x61, 0x73, 0x41, 0x64, 0x64, 0x00, 0x00, 0x00, 0x00,
    0x02, 0x00, 0x00, 0x00, 0x01, 0x00, 0x00, 0x00, 0x10, 0x00, 0x00, 0x00,
    0x96, 0xfd, 0xff, 0xff, 0x00, 0x00, 0x00, 0x01, 0x14, 0x00, 0x00, 0x00,
    0x1c, 0x00, 0x00, 0x00, 0x1c, 0x00, 0x00, 0x00, 0x08, 0x00, 0x00, 0x00,
    0x60, 0x00, 0x00, 0x00, 0x02, 0x00, 0x00, 0x00, 0xff, 0xff, 0xff, 0xff,
    0x20, 0x00, 0x00, 0x00, 0x80, 0xfd, 0xff, 0xff, 0x46, 0x00, 0x00, 0x00,
    0x73, 0x65, 0x71, 0x75, 0x65, 0x6e, 0x74, 0x69, 0x61, 0x6c, 0x2f, 0x64,
    0x65, 0x6e, 0x73, 0x65, 0x2f, 0x4d, 0x61, 0x74, 0x4d, 0x75, 0x6c, 0x3b,
    0x73, 0x65, 0x71, 0x75, 0x65, 0x6e, 0x74, 0x69, 0x61, 0x6c, 0x2f, 0x64,
    0x65, 0x6e, 0x73, 0x65, 0x2f, 0x52, 0x65, 0x6c, 0x75, 0x3b, 0x73, 0x65,
    0x71, 0x75, 0x65, 0x6e, 0x74, 0x69, 0x61, 0x6c, 0x2f, 0x64, 0x65, 0x6e,
    0x73, 0x65, 0x2f, 0x42, 0x69, 0x61, 0x73, 0x41, 0x64, 0x64, 0x00, 0x00,
    0x02, 0x00, 0x00, 0x00, 0x01, 0x00, 0x00, 0x00, 0x20, 0x00, 0x00, 0x00,
    0x86, 0xfe, 0xff, 0xff, 0x00, 0x00, 0x00, 0x01, 0x10, 0x00, 0x00, 0x00,
    0x10, 0x00, 0x00, 0x00, 0x07, 0x00, 0x00, 0x00, 0x28, 0x00, 0x00, 0x00,
    0xf4, 0xfd, 0xff, 0xff, 0x19, 0x00, 0x00, 0x00, 0x73, 0x65, 0x71, 0x75,
    0x65, 0x6e, 0x74, 0x69, 0x61, 0x6c, 0x2f, 0x64, 0x65, 0x6e, 0x73, 0x65,
    0x5f, 0x32, 0x2f, 0x4d, 0x61, 0x74, 0x4d, 0x75, 0x6c, 0x00, 0x00, 0x00,
    0x02, 0x00, 0x00, 0x00, 0x01, 0x00, 0x00, 0x00, 0x10, 0x00, 0x00, 0x00,
    0xce, 0xfe, 0xff, 0xff, 0x00, 0x00, 0x00, 0x01, 0x10, 0x00, 0x00, 0x00,
    0x10, 0x00, 0x00, 0x00, 0x06, 0x00, 0x00, 0x00, 0x28, 0x00, 0x00, 0x00,
    0x3c, 0xfe, 0xff, 0xff, 0x19, 0x00, 0x00, 0x00, 0x73, 0x65, 0x71, 0x75,
    0x65, 0x6e, 0x74, 0x69, 0x61, 0x6c, 0x2f, 0x64, 0x65, 0x6e, 0x73, 0x65,
    0x5f, 0x31, 0x2f, 0x4d, 0x61, 0x74, 0x4d, 0x75, 0x6c, 0x00, 0x00, 0x00,
    0x02, 0x00, 0x00, 0x00, 0x10, 0x00, 0x00, 0x00, 0x20, 0x00, 0x00, 0x00,
    0x16, 0xff, 0xff, 0xff, 0x00, 0x00, 0x00, 0x01, 0x10, 0x00, 0x00, 0x00,
    0x10, 0x00, 0x00, 0x00, 0x05, 0x00, 0x00, 0x00, 0x24, 0x00, 0x00, 0x00,
    0x84, 0xfe, 0xff, 0xff, 0x17, 0x00, 0x00, 0x00, 0x73, 0x65, 0x71, 0x75,
    0x65, 0x6e, 0x74, 0x69, 0x61, 0x6c, 0x2f, 0x64, 0x65, 0x6e, 0x73, 0x65,
    0x2f, 0x4d, 0x61, 0x74, 0x4d, 0x75, 0x6c, 0x00, 0x02, 0x00, 0x00, 0x00,
    0x20, 0x00, 0x00, 0x00, 0x01, 0x00, 0x00, 0x00, 0x5a, 0xff, 0xff, 0xff,
    0x00, 0x00, 0x00, 0x01, 0x10, 0x00, 0x00, 0x00, 0x10, 0x00, 0x00, 0x00,
    0x04, 0x00, 0x00, 0x00, 0x34, 0x00, 0x00, 0x00, 0xc8, 0xfe, 0xff, 0xff,
    0x27, 0x00, 0x00, 0x00, 0x73, 0x65, 0x71, 0x75, 0x65, 0x6e, 0x74, 0x69,
    0x61, 0x6c, 0x2f, 0x64, 0x65, 0x6e, 0x73, 0x65, 0x2f, 0x42, 0x69, 0x61,
    0x73, 0x41, 0x64, 0x64, 0x2f, 0x52, 0x65, 0x61, 0x64, 0x56, 0x61, 0x72,
    0x69, 0x61, 0x62, 0x6c, 0x65, 0x4f, 0x70, 0x00, 0x01, 0x00, 0x00, 0x00,
    0x20, 0x00, 0x00, 0x00, 0xaa, 0xff, 0xff, 0xff, 0x00, 0x00, 0x00, 0x01,
    0x10, 0x00, 0x00, 0x00, 0x10, 0x00, 0x00, 0x00, 0x03, 0x00, 0x00, 0x00,
    0x38, 0x00, 0x00, 0x00, 0x18, 0xff, 0xff, 0xff, 0x29, 0x00, 0x00, 0x00,
    0x73, 0x65, 0x71, 0x75, 0x65, 0x6e, 0x74, 0x69, 0x61, 0x6c, 0x2f, 0x64,
    0x65, 0x6e, 0x73, 0x65, 0x5f, 0x32, 0x2f, 0x42, 0x69, 0x61, 0x73, 0x41,
    0x64, 0x64, 0x2f, 0x52, 0x65, 0x61, 0x64, 0x56, 0x61, 0x72, 0x69, 0x61,
    0x62, 0x6c, 0x65, 0x4f, 0x70, 0x00, 0x00, 0x00, 0x01, 0x00, 0x00, 0x00,
    0x01, 0x00, 0x00, 0x00, 0x00, 0x00, 0x16, 0x00, 0x18, 0x00, 0x14, 0x00,
    0x00, 0x00, 0x10, 0x00, 0x0c, 0x00, 0x08, 0x00, 0x00, 0x00, 0x00, 0x00,
    0x00, 0x00, 0x07, 0x00, 0x16, 0x00, 0x00, 0x00, 0x00, 0x00, 0x00, 0x01,
    0x10, 0x00, 0x00, 0x00, 0x10, 0x00, 0x00, 0x00, 0x02, 0x00, 0x00, 0x00,
    0x38, 0x00, 0x00, 0x00, 0x84, 0xff, 0xff, 0xff, 0x29, 0x00, 0x00, 0x00,
    0x73, 0x65, 0x71, 0x75, 0x65, 0x6e, 0x74, 0x69, 0x61, 0x6c, 0x2f, 0x64,
    0x65, 0x6e, 0x73, 0x65, 0x5f, 0x31, 0x2f, 0x42, 0x69, 0x61, 0x73, 0x41,
    0x64, 0x64, 0x2f, 0x52, 0x65, 0x61, 0x64, 0x56, 0x61, 0x72, 0x69, 0x61,
    0x62, 0x6c, 0x65, 0x4f, 0x70, 0x00, 0x00, 0x00, 0x01, 0x00, 0x00, 0x00,
    0x10, 0x00, 0x00, 0x00, 0x00, 0x00, 0x16, 0x00, 0x1c, 0x00, 0x18, 0x00,
    0x00, 0x00, 0x14, 0x00, 0x10, 0x00, 0x0c, 0x00, 0x00, 0x00, 0x00, 0x00,
    0x08, 0x00, 0x07, 0x00, 0x16, 0x00, 0x00, 0x00, 0x00, 0x00, 0x00, 0x01,
    0x14, 0x00, 0x00, 0x00, 0x20, 0x00, 0x00, 0x00, 0x20, 0x00, 0x00, 0x00,
    0x01, 0x00, 0x00, 0x00, 0x3c, 0x00, 0x00, 0x00, 0x02, 0x00, 0x00, 0x00,
    0xff, 0xff, 0xff, 0xff, 0x01, 0x00, 0x00, 0x00, 0x04, 0x00, 0x04, 0x00,
    0x04, 0x00, 0x00, 0x00, 0x1d, 0x00, 0x00, 0x00, 0x73, 0x65, 0x72, 0x76,
    0x69, 0x6e, 0x67, 0x5f, 0x64, 0x65, 0x66, 0x61, 0x75, 0x6c, 0x74, 0x5f,
    0x64, 0x65, 0x6e, 0x73, 0x65, 0x5f, 0x69, 0x6e, 0x70, 0x75, 0x74, 0x3a,
    0x30, 0x00, 0x00, 0x00, 0x02, 0x00, 0x00, 0x00, 0x01, 0x00, 0x00, 0x00,
    0x01, 0x00, 0x00, 0x00, 0x01, 0x00, 0x00, 0x00, 0x10, 0x00, 0x00, 0x00,
    0x0c, 0x00, 0x0c, 0x00, 0x0b, 0x00, 0x00, 0x00, 0x00, 0x00, 0x04, 0x00,
    0x0c, 0x00, 0x00, 0x00, 0x09, 0x00, 0x00, 0x00, 0x00, 0x00, 0x00, 0x09};
const int sine_model_quantized_tflite_len = 4320;
